#ifndef AQI_MODEL_DATA_H
#define AQI_MODEL_DATA_H

// Model tflite converted for Renesas RA6M5
const unsigned char g_aqi_model_data[] __attribute__((aligned(16))) = {
  0x1c, 0x00, 0x00, 0x00, 0x54, 0x46, 0x4c, 0x33, 0x14, 0x00, 0x20, 0x00, 
  0x1c, 0x00, 0x18, 0x00, 0x14, 0x00, 0x10, 0x00, 0x0c, 0x00, 0x00, 0x00, 
  0x08, 0x00, 0x04, 0x00, 0x14, 0x00, 0x00, 0x00, 0x1c, 0x00, 0x00, 0x00, 
  0x98, 0x00, 0x00, 0x00, 0xf0, 0x00, 0x00, 0x00, 0x14, 0x0c, 0x00, 0x00, 
  0x24, 0x0c, 0x00, 0x00, 0x18, 0x11, 0x00, 0x00, 0x03, 0x00, 0x00, 0x00, 
  0x01, 0x00, 0x00, 0x00, 0x10, 0x00, 0x00, 0x00, 0x00, 0x00, 0x0a, 0x00, 
  0x10, 0x00, 0x0c, 0x00, 0x08, 0x00, 0x04, 0x00, 0x0a, 0x00, 0x00, 0x00, 
  0x0c, 0x00, 0x00, 0x00, 0x1c, 0x00, 0x00, 0x00, 0x3c, 0x00, 0x00, 0x00, 
  0x0f, 0x00, 0x00, 0x00, 0x73, 0x65, 0x72, 0x76, 0x69, 0x6e, 0x67, 0x5f, 
  0x64, 0x65, 0x66, 0x61, 0x75, 0x6c, 0x74, 0x00, 0x01, 0x00, 0x00, 0x00, 
  0x04, 0x00, 0x00, 0x00, 0x90, 0xff, 0xff, 0xff, 0x09, 0x00, 0x00, 0x00, 
  0x04, 0x00, 0x00, 0x00, 0x08, 0x00, 0x00, 0x00, 0x6f, 0x75, 0x74, 0x70, 
  0x75, 0x74, 0x5f, 0x30, 0x00, 0x00, 0x00, 0x00, 0x01, 0x00, 0x00, 0x00, 
  0x04, 0x00, 0x00, 0x00, 0x9a, 0xf4, 0xff, 0xff, 0x04, 0x00, 0x00, 0x00, 
  0x0f, 0x00, 0x00, 0x00, 0x6b, 0x65, 0x72, 0x61, 0x73, 0x5f, 0x74, 0x65, 
  0x6e, 0x73, 0x6f, 0x72, 0x5f, 0x31, 0x30, 0x00, 0x02, 0x00, 0x00, 0x00, 
  0x34, 0x00, 0x00, 0x00, 0x04, 0x00, 0x00, 0x00, 0xdc, 0xff, 0xff, 0xff, 
  0x0c, 0x00, 0x00, 0x00, 0x04, 0x00, 0x00, 0x00, 0x13, 0x00, 0x00, 0x00, 
  0x43, 0x4f, 0x4e, 0x56, 0x45, 0x52, 0x53, 0x49, 0x4f, 0x4e, 0x5f, 0x4d, 
  0x45, 0x54, 0x41, 0x44, 0x41, 0x54, 0x41, 0x00, 0x08, 0x00, 0x0c, 0x00, 
  0x08, 0x00, 0x04, 0x00, 0x08, 0x00, 0x00, 0x00, 0x0b, 0x00, 0x00, 0x00, 
  0x04, 0x00, 0x00, 0x00, 0x13, 0x00, 0x00, 0x00, 0x6d, 0x69, 0x6e, 0x5f, 
  0x72, 0x75, 0x6e, 0x74, 0x69, 0x6d, 0x65, 0x5f, 0x76, 0x65, 0x72, 0x73, 
  0x69, 0x6f, 0x6e, 0x00, 0x0d, 0x00, 0x00, 0x00, 0x20, 0x0b, 0x00, 0x00, 
  0x18, 0x0b, 0x00, 0x00, 0xe8, 0x0a, 0x00, 0x00, 0xd0, 0x08, 0x00, 0x00, 
  0xbc, 0x08, 0x00, 0x00, 0x8c, 0x08, 0x00, 0x00, 0x3c, 0x08, 0x00, 0x00, 
  0xac, 0x00, 0x00, 0x00, 0xa4, 0x00, 0x00, 0x00, 0x9c, 0x00, 0x00, 0x00, 
  0x94, 0x00, 0x00, 0x00, 0x74, 0x00, 0x00, 0x00, 0x04, 0x00, 0x00, 0x00, 
  0x4a, 0xf5, 0xff, 0xff, 0x04, 0x00, 0x00, 0x00, 0x60, 0x00, 0x00, 0x00, 
  0x0c, 0x00, 0x00, 0x00, 0x08, 0x00, 0x0e, 0x00, 0x08, 0x00, 0x04, 0x00, 
  0x08, 0x00, 0x00, 0x00, 0x10, 0x00, 0x00, 0x00, 0x28, 0x00, 0x00, 0x00, 
  0x00, 0x00, 0x06, 0x00, 0x08, 0x00, 0x04, 0x00, 0x06, 0x00, 0x00, 0x00, 
  0x04, 0x00, 0x00, 0x00, 0x01, 0x00, 0x00, 0x00, 0xea, 0x03, 0x00, 0x00, 
  0x0c, 0x00, 0x18, 0x00, 0x14, 0x00, 0x10, 0x00, 0x0c, 0x00, 0x04, 0x00, 
  0x0c, 0x00, 0x00, 0x00, 0x1b, 0xd1, 0x02, 0x08, 0x8c, 0xba, 0xc7, 0x9c, 
  0x02, 0x00, 0x00, 0x00, 0x02, 0x00, 0x00, 0x00, 0x04, 0x00, 0x00, 0x00, 
  0x06, 0x00, 0x00, 0x00, 0x32, 0x2e, 0x31, 0x39, 0x2e, 0x30, 0x00, 0x00, 
  0xb6, 0xf5, 0xff, 0xff, 0x04, 0x00, 0x00, 0x00, 0x10, 0x00, 0x00, 0x00, 
  0x31, 0x2e, 0x35, 0x2e, 0x30, 0x00, 0x00, 0x00, 0x00, 0x00, 0x00, 0x00, 
  0x00, 0x00, 0x00, 0x00, 0xc8, 0xf0, 0xff, 0xff, 0xcc, 0xf0, 0xff, 0xff, 
  0xd0, 0xf0, 0xff, 0xff, 0xde, 0xf5, 0xff, 0xff, 0x04, 0x00, 0x00, 0x00, 
  0x80, 0x07, 0x00, 0x00, 0xb6, 0x3d, 0x01, 0x3f, 0x28, 0xf3, 0x54, 0xbc, 
  0xa1, 0x05, 0x85, 0xbe, 0x83, 0xbe, 0x31, 0x3e, 0xe7, 0x2b, 0x58, 0x3e, 
  0xd9, 0xe8, 0xce, 0xbc, 0x02, 0x7e, 0xae, 0x3c, 0x7a, 0x5e, 0xb4, 0xbe, 
  0xb6, 0xe3, 0x13, 0xbe, 0x8e, 0x8c, 0x96, 0xbd, 0x78, 0x7b, 0xb4, 0x3e, 
  0x69, 0x1a, 0xc1, 0x3e, 0xa2, 0x48, 0xfd, 0xbd, 0x5d, 0xc3, 0x00, 0xbd, 
  0xd6, 0xad, 0xad, 0xbe, 0xd1, 0x52, 0xef, 0x3e, 0x66, 0xcb, 0xc2, 0xbe, 
  0x41, 0x2a, 0xc9, 0x3d, 0xac, 0x93, 0xa7, 0xbb, 0xfe, 0xbd, 0x1e, 0x3e, 
  0x51, 0x63, 0x19, 0xbe, 0xef, 0xc1, 0x0f, 0x3e, 0x5b, 0x42, 0x81, 0xbe, 
  0xd2, 0xfc, 0x1d, 0xbd, 0xe9, 0xe0, 0xd2, 0xbd, 0xa7, 0x9e, 0xad, 0xbc, 
  0x62, 0xe1, 0xbb, 0xbe, 0x3f, 0x99, 0x94, 0x3e, 0x35, 0x92, 0x05, 0x3e, 
  0x31, 0x59, 0xef, 0x3d, 0x5f, 0xf0, 0x46, 0x3d, 0x7d, 0x53, 0x81, 0x3e, 
  0xf2, 0x13, 0x2c, 0x3e, 0x55, 0xba, 0x41, 0xbe, 0xab, 0x4c, 0x86, 0xbe, 
  0x98, 0x18, 0x8e, 0xbe, 0xa0, 0x14, 0x8a, 0xbd, 0x54, 0x26, 0xd6, 0x3c, 
  0xdf, 0x61, 0x07, 0xbf, 0xff, 0x2b, 0x83, 0xbe, 0xb9, 0x87, 0xaa, 0x3e, 
  0xee, 0x8a, 0x54, 0xbe, 0x88, 0x62, 0x7e, 0xbe, 0xf0, 0x76, 0x99, 0x3d, 
  0x74, 0x47, 0xbe, 0xbe, 0x5c, 0x31, 0x54, 0xbd, 0x59, 0x0d, 0x39, 0x3e, 
  0xf2, 0xd0, 0x6e, 0x3e, 0x78, 0xeb, 0x51, 0x3e, 0x2e, 0xa2, 0x3a, 0xbf, 
  0xc8, 0x3f, 0x30, 0xbd, 0xb6, 0xe0, 0x1b, 0x3e, 0x78, 0xdc, 0xba, 0xbe, 
  0x80, 0xc5, 0x00, 0xbe, 0xa9, 0xa4, 0x69, 0xbe, 0xe6, 0x02, 0xdd, 0xbd, 
  0x2a, 0x7c, 0x9e, 0x3e, 0x2f, 0x03, 0xc5, 0x3d, 0x1c, 0x5e, 0x1c, 0x3d, 
  0x5f, 0x04, 0x79, 0xbb, 0x71, 0x8d, 0x45, 0x3e, 0x87, 0x7d, 0x55, 0x3d, 
  0xca, 0xe7, 0x0d, 0xbe, 0xa9, 0x38, 0xa3, 0x3e, 0x24, 0x96, 0x8e, 0x3e, 
  0xe5, 0x6c, 0x30, 0x3e, 0x02, 0xb8, 0xf2, 0x3d, 0x08, 0x3b, 0x48, 0xbd, 
  0x72, 0x8c, 0x06, 0xbe, 0x30, 0x2d, 0x55, 0xbe, 0xf2, 0xac, 0x0b, 0xbe, 
  0x73, 0x7f, 0xe8, 0x3d, 0x17, 0xf5, 0x67, 0xbe, 0x24, 0x1f, 0x41, 0xbe, 
  0xa9, 0xca, 0x3f, 0xbe, 0x6d, 0xb9, 0x1d, 0xbc, 0x6b, 0x5e, 0x75, 0x3e, 
  0x50, 0x3d, 0xd5, 0xbd, 0x96, 0x5e, 0x09, 0x3e, 0xbd, 0x7c, 0x2d, 0x3e, 
  0xd8, 0xa7, 0x05, 0x3e, 0x21, 0xeb, 0x16, 0x3e, 0x34, 0x4c, 0xd0, 0xbc, 
  0x70, 0x61, 0xc5, 0xbd, 0xe4, 0x03, 0x35, 0xbe, 0x4b, 0xf1, 0xf4, 0x3e, 
  0xf4, 0xc1, 0xc7, 0xbe, 0x0c, 0xf4, 0xea, 0x3c, 0x02, 0xfe, 0x02, 0xbe, 
  0x03, 0xe4, 0x9c, 0x3d, 0xf8, 0xa2, 0xfe, 0xbd, 0xd9, 0xcb, 0x3c, 0xbc, 
  0x03, 0x40, 0xc1, 0x3d, 0xca, 0x73, 0xd6, 0xbd, 0x4d, 0x7f, 0x2e, 0x3d, 
  0x6d, 0xbe, 0x18, 0x3e, 0x85, 0x11, 0xc5, 0x3d, 0x7e, 0x20, 0xf7, 0xbd, 
  0x23, 0x76, 0x53, 0xbc, 0xa8, 0xf6, 0xcb, 0xbe, 0x47, 0xc2, 0xfd, 0x3d, 
  0xed, 0xe3, 0x8c, 0xbe, 0x6a, 0x53, 0x8e, 0xbd, 0x86, 0xdd, 0x6a, 0xbd, 
  0x9e, 0x76, 0x09, 0xbf, 0x54, 0xcb, 0xe7, 0xbd, 0xcd, 0x90, 0xde, 0xbd, 
  0x77, 0xa6, 0x04, 0x3e, 0xfe, 0x4a, 0x03, 0xbe, 0xd4, 0xf0, 0x23, 0xbf, 
  0xc0, 0x12, 0x85, 0xbd, 0x90, 0x1a, 0xf4, 0xbd, 0x9f, 0xbd, 0xb0, 0x3e, 
  0xba, 0x57, 0x32, 0x3d, 0xd0, 0x23, 0x85, 0xbd, 0xe1, 0x89, 0x7f, 0xbd, 
  0xdd, 0x1d, 0xdf, 0x3e, 0x1e, 0x1b, 0x7b, 0x3d, 0x14, 0xd5, 0x5c, 0xbe, 
  0x0d, 0xfd, 0x78, 0x3e, 0xdf, 0x4d, 0x06, 0x3f, 0x17, 0x7f, 0x18, 0xbd, 
  0xbd, 0x4d, 0xd8, 0xbe, 0x96, 0xd4, 0x03, 0x3f, 0x77, 0x83, 0x01, 0xbe, 
  0x7b, 0x4b, 0xf5, 0xbd, 0xa8, 0x0f, 0x92, 0x3e, 0xd3, 0xb8, 0xe7, 0xbe, 
  0xf3, 0x81, 0xa8, 0x3e, 0x02, 0xe7, 0x25, 0xbc, 0x12, 0x8b, 0xc8, 0x3e, 
  0x30, 0xe5, 0x6d, 0xbe, 0xf2, 0xb1, 0x98, 0xbe, 0xed, 0x00, 0x2e, 0x3c, 
  0xf9, 0xdc, 0x3c, 0xbe, 0x16, 0xb2, 0xb7, 0x3e, 0xeb, 0xa9, 0xcd, 0xbe, 
  0x8d, 0x2e, 0xe3, 0xbe, 0xeb, 0x7e, 0x62, 0x3e, 0x7a, 0x0e, 0x50, 0x3e, 
  0xa7, 0x3b, 0x56, 0x3e, 0xd2, 0xfe, 0x3d, 0x3e, 0x0b, 0xd2, 0xfd, 0xbe, 
  0xae, 0x8a, 0x26, 0x3d, 0x6d, 0x89, 0xa2, 0xbc, 0xf8, 0x25, 0x1b, 0x3e, 
  0xf3, 0x4d, 0x32, 0x3e, 0xdb, 0xce, 0x09, 0xbe, 0x9a, 0xbb, 0xb8, 0x3e, 
  0xaa, 0x5e, 0xa4, 0x3d, 0xd6, 0x18, 0x31, 0x3e, 0xcd, 0xdb, 0xed, 0xbd, 
  0x99, 0x5f, 0xc1, 0xbd, 0xfe, 0xab, 0x9f, 0x3e, 0x41, 0xce, 0x55, 0x3d, 
  0x2f, 0x9a, 0xaa, 0xbd, 0x8d, 0x59, 0x3d, 0xbe, 0x46, 0x53, 0x83, 0x3e, 
  0x73, 0x75, 0xbf, 0xbd, 0x93, 0x65, 0x54, 0xbe, 0x6e, 0x17, 0x17, 0xbe, 
  0x21, 0xf7, 0x20, 0x3e, 0xc2, 0x84, 0x82, 0xbc, 0x2c, 0x4f, 0xaa, 0x3e, 
  0x8e, 0x6f, 0x6d, 0x3e, 0x36, 0xd3, 0xcd, 0x3d, 0x2c, 0x14, 0x8a, 0x3e, 
  0xea, 0x9c, 0xb1, 0xbd, 0x37, 0xe9, 0xbd, 0xbd, 0xb0, 0x55, 0xba, 0x3e, 
  0x09, 0xed, 0xad, 0x3e, 0xf9, 0x38, 0xc7, 0xbe, 0x3f, 0x51, 0x8c, 0x3d, 
  0xed, 0x94, 0x00, 0xbe, 0x19, 0xad, 0x21, 0xbe, 0x76, 0x27, 0xdc, 0x3c, 
  0xca, 0x58, 0x00, 0x3e, 0xa3, 0x6d, 0xa6, 0x3e, 0x62, 0x13, 0x22, 0xbe, 
  0x18, 0x27, 0x35, 0x3e, 0x0b, 0x05, 0x76, 0x3e, 0xdb, 0xab, 0xfd, 0x3c, 
  0x74, 0xb5, 0x26, 0xbe, 0x5e, 0x93, 0x78, 0x3e, 0x09, 0x3b, 0x74, 0xbe, 
  0xb8, 0x7e, 0x84, 0x3e, 0xb4, 0xbc, 0x8c, 0xbe, 0xd9, 0x2e, 0xb1, 0x3b, 
  0x89, 0x3f, 0x73, 0xbe, 0x8d, 0xf6, 0xf2, 0xbd, 0xdc, 0x90, 0x24, 0xbd, 
  0x31, 0x6c, 0xb1, 0xbd, 0x1e, 0xf4, 0xab, 0x3e, 0xe5, 0xe8, 0x70, 0xbe, 
  0xf7, 0x50, 0xac, 0x3b, 0xf5, 0x63, 0xcd, 0x3e, 0xbd, 0x87, 0x81, 0x3e, 
  0xe7, 0xf9, 0x73, 0x3e, 0x02, 0x80, 0xc1, 0xbd, 0x3c, 0x7b, 0x86, 0x3e, 
  0xb6, 0x9c, 0xb8, 0x3c, 0xd7, 0xd8, 0xba, 0xbd, 0xcf, 0xeb, 0x2c, 0xbe, 
  0xcc, 0x4e, 0x18, 0xbe, 0xaa, 0x15, 0x00, 0xbe, 0x61, 0xc4, 0x13, 0x3e, 
  0x06, 0x76, 0xa4, 0x3d, 0x18, 0xbd, 0x76, 0x3e, 0x5f, 0x34, 0xc4, 0xbe, 
  0x1a, 0xfa, 0x23, 0x3e, 0x90, 0x29, 0x1c, 0xbe, 0xb3, 0x49, 0x15, 0xbe, 
  0xd1, 0x15, 0x0f, 0x3e, 0xb8, 0x2b, 0x3c, 0x3e, 0xcc, 0x92, 0x59, 0x3e, 
  0x5c, 0x07, 0x77, 0x3d, 0x54, 0xd0, 0xac, 0xbd, 0xae, 0xd5, 0xc7, 0xbd, 
  0x15, 0xb9, 0x5c, 0x3d, 0xc1, 0xfe, 0x1f, 0xbf, 0x45, 0x3a, 0x09, 0x3d, 
  0x00, 0x9b, 0x37, 0x3e, 0x84, 0xd2, 0x36, 0x3e, 0x26, 0xa3, 0xa3, 0xbd, 
  0xaa, 0x82, 0x0c, 0xbf, 0x16, 0xf9, 0x32, 0x3d, 0x34, 0xcf, 0x2c, 0xbe, 
  0xd0, 0x0b, 0x29, 0x3e, 0x94, 0xe1, 0x03, 0xbd, 0xf4, 0x02, 0x8c, 0xbe, 
  0xab, 0x33, 0x09, 0x3e, 0x68, 0x00, 0xaf, 0xbe, 0xfb, 0xa0, 0x01, 0xbe, 
  0x63, 0x4d, 0x52, 0xbe, 0xfd, 0xae, 0x06, 0xbc, 0xfc, 0xa8, 0xa9, 0x3e, 
  0x7e, 0xa8, 0x89, 0x3e, 0x76, 0xec, 0xbe, 0xbc, 0x6d, 0x1e, 0x39, 0xbe, 
  0x93, 0x3d, 0x6f, 0xbc, 0x90, 0xa5, 0xe5, 0x3e, 0x1e, 0xae, 0xd7, 0xbd, 
  0x86, 0xc9, 0x01, 0x3e, 0xc6, 0x74, 0x78, 0xbd, 0x39, 0x67, 0x4a, 0x3c, 
  0x8e, 0xbe, 0x21, 0x3e, 0x42, 0x3a, 0x3f, 0x3e, 0xd7, 0x9d, 0x21, 0x3b, 
  0xa0, 0xc6, 0xb5, 0x3e, 0x42, 0x54, 0xab, 0x3e, 0xdf, 0x1b, 0xf6, 0x3d, 
  0x05, 0xf8, 0x70, 0xbe, 0xbf, 0xc9, 0x91, 0xbe, 0xf7, 0x70, 0x15, 0x3e, 
  0xb9, 0x00, 0x70, 0x3d, 0x7b, 0x53, 0x1a, 0xbe, 0x1f, 0x75, 0x81, 0xbe, 
  0x6f, 0xbb, 0x99, 0x3e, 0xb6, 0x56, 0x2f, 0xbe, 0x25, 0xf7, 0xe2, 0xbc, 
  0xd1, 0x70, 0x86, 0xbd, 0xcf, 0x3a, 0x26, 0xbe, 0x04, 0xfc, 0x37, 0x3e, 
  0x01, 0xa9, 0x90, 0xbd, 0x9d, 0x07, 0x77, 0x3e, 0xd6, 0x07, 0xc5, 0xbd, 
  0xd5, 0x39, 0x13, 0x3e, 0xa2, 0x40, 0xde, 0x3d, 0xfa, 0x7a, 0xec, 0x3d, 
  0x84, 0x00, 0xce, 0x3d, 0xd5, 0xf2, 0xd8, 0x3e, 0xd8, 0xd2, 0x00, 0xbe, 
  0x5a, 0x89, 0x0e, 0x3e, 0x48, 0x80, 0xbe, 0x3e, 0x9c, 0xc2, 0xd0, 0x3e, 
  0xa8, 0xe9, 0x08, 0xbe, 0x3c, 0x8a, 0x6b, 0xbd, 0x81, 0x7c, 0x87, 0xbe, 
  0x02, 0x36, 0x39, 0x3e, 0x15, 0xa2, 0x89, 0xbe, 0x26, 0x00, 0x65, 0xbe, 
  0x2b, 0x7f, 0x9d, 0xbe, 0x92, 0xd4, 0x3d, 0x3d, 0x49, 0x8c, 0x65, 0x3e, 
  0x45, 0x66, 0x7a, 0xbe, 0x3c, 0x95, 0x4f, 0x3e, 0x44, 0x4e, 0x60, 0xbd, 
  0x48, 0xa7, 0x26, 0xbe, 0xcc, 0x21, 0x20, 0x3e, 0x2d, 0x6c, 0x69, 0x3e, 
  0xe8, 0x8a, 0x20, 0xbd, 0x98, 0xfb, 0x74, 0x3e, 0x96, 0x7b, 0x3f, 0x3e, 
  0xc0, 0x29, 0x09, 0xbf, 0x35, 0xcd, 0x41, 0x3d, 0x85, 0xa1, 0xa2, 0x3e, 
  0x5f, 0xc3, 0x85, 0x3e, 0x01, 0x79, 0xaa, 0x3d, 0xa3, 0xe6, 0xc2, 0xbd, 
  0xac, 0xcb, 0xa2, 0x3e, 0xab, 0xd7, 0x80, 0x3c, 0x1a, 0xfb, 0x0d, 0x3e, 
  0x80, 0x3d, 0xb2, 0x3d, 0xdc, 0xb9, 0x11, 0x3e, 0xde, 0x1b, 0xd1, 0xbd, 
  0xdd, 0xbc, 0x13, 0xbd, 0xe6, 0x7a, 0x99, 0xbd, 0x6b, 0xe4, 0xba, 0x3d, 
  0x82, 0x9a, 0xc4, 0x3d, 0xb5, 0xe4, 0x63, 0x3e, 0x58, 0x6d, 0x8d, 0x3c, 
  0xa7, 0x28, 0xd5, 0x3d, 0xa5, 0x46, 0x33, 0xbe, 0xe7, 0xec, 0x11, 0xbe, 
  0xda, 0x75, 0x19, 0x3e, 0x97, 0x7a, 0x63, 0x3c, 0x73, 0xe7, 0xef, 0x3d, 
  0x16, 0x48, 0x38, 0x3e, 0xd1, 0xc9, 0x54, 0xbe, 0xd2, 0x49, 0x42, 0x3e, 
  0x8e, 0xc5, 0x87, 0x3e, 0x48, 0x64, 0xf0, 0xbe, 0xc5, 0xec, 0x10, 0xbe, 
  0x68, 0x66, 0x6d, 0x3e, 0x93, 0x38, 0x6f, 0xbe, 0xa9, 0x29, 0xe6, 0x3e, 
  0xb8, 0xd0, 0xd9, 0xbe, 0x23, 0xa9, 0x3e, 0x3e, 0x4b, 0x01, 0x6a, 0x3e, 
  0x77, 0x9f, 0x79, 0x3e, 0xac, 0xd9, 0x2f, 0x3f, 0x9d, 0x1f, 0xf8, 0xbd, 
  0xe2, 0xe2, 0x8c, 0x3e, 0xb4, 0x00, 0x16, 0xbe, 0x0b, 0x3b, 0x2a, 0x3e, 
  0x51, 0x3e, 0xe7, 0xbd, 0xb5, 0x47, 0x98, 0xbd, 0x3b, 0x38, 0xc1, 0xbe, 
  0x41, 0xe9, 0xd2, 0x3d, 0x24, 0x2c, 0x96, 0xbd, 0x1c, 0xd4, 0xec, 0x3e, 
  0xe6, 0x3e, 0x2b, 0x3e, 0x31, 0xd4, 0x03, 0x3e, 0xa0, 0xc9, 0xd6, 0xbd, 
  0x6f, 0xbf, 0x25, 0x3e, 0x32, 0xe4, 0xf8, 0xbd, 0xab, 0xcd, 0x6b, 0xbd, 
  0x57, 0x25, 0xbd, 0xbe, 0x69, 0x78, 0x94, 0x3e, 0xb9, 0x16, 0x98, 0xbe, 
  0xbe, 0xc6, 0x8b, 0x3e, 0x56, 0xdc, 0x28, 0xbe, 0xb1, 0x96, 0xf0, 0xbb, 
  0xe5, 0x37, 0x50, 0xbe, 0xf4, 0xb7, 0x1b, 0x3e, 0xb7, 0x14, 0x01, 0x3f, 
  0x19, 0xf2, 0xa6, 0xbe, 0x1e, 0xe0, 0xc7, 0x3d, 0x58, 0x48, 0x15, 0xbe, 
  0x71, 0x2c, 0xa4, 0x3c, 0x3b, 0x55, 0x8d, 0x3e, 0x4f, 0x3a, 0xd3, 0x3e, 
  0x3d, 0x7e, 0x24, 0x3e, 0xa9, 0xc4, 0x8c, 0xbd, 0x6e, 0xd7, 0xa4, 0xbd, 
  0x1e, 0xbc, 0x0a, 0xbe, 0xed, 0x6c, 0x1b, 0x3d, 0x78, 0x00, 0x06, 0x3c, 
  0xf8, 0x11, 0x27, 0x3e, 0x4d, 0xe7, 0x40, 0xbe, 0x09, 0x00, 0xb3, 0x3e, 
  0x31, 0xe5, 0xd6, 0x3b, 0x74, 0xd8, 0x6c, 0x3d, 0xb8, 0xf9, 0x95, 0xbe, 
  0xdc, 0x30, 0x36, 0x3e, 0x54, 0x57, 0x81, 0xbe, 0x01, 0x14, 0xcf, 0xbe, 
  0xb0, 0xcc, 0xa9, 0x3e, 0x1d, 0x42, 0xb2, 0xbe, 0x6e, 0xd8, 0x59, 0x3e, 
  0x0d, 0x36, 0x7a, 0xbe, 0x5d, 0xab, 0x27, 0x3e, 0x4e, 0x33, 0xaf, 0xbc, 
  0x72, 0xee, 0x91, 0xbd, 0x70, 0x31, 0xee, 0xbd, 0x34, 0x9f, 0xee, 0x3d, 
  0xd0, 0x1f, 0x04, 0xbd, 0x94, 0x1c, 0xb2, 0x3e, 0x28, 0x3e, 0x38, 0x3e, 
  0x89, 0xa1, 0xd3, 0x3e, 0xdf, 0xc1, 0x8a, 0x3d, 0x83, 0xe0, 0x02, 0x3f, 
  0xd5, 0x38, 0x54, 0x3e, 0x1b, 0xfd, 0x28, 0xbf, 0x81, 0x82, 0x3d, 0x3f, 
  0x4b, 0x16, 0x19, 0x3d, 0x44, 0x51, 0x6e, 0x3d, 0xcb, 0x8d, 0x1e, 0xbe, 
  0x1b, 0xfa, 0x69, 0xbe, 0x6b, 0x51, 0xec, 0x3e, 0x4d, 0x31, 0x19, 0xbe, 
  0x98, 0x45, 0x58, 0xbd, 0x1f, 0xbe, 0xb3, 0x3e, 0x5f, 0x3f, 0x54, 0xbe, 
  0xc6, 0x86, 0x51, 0x3d, 0xad, 0x39, 0xfa, 0x3d, 0xe8, 0xe0, 0x0c, 0xbe, 
  0x78, 0x02, 0x5c, 0x3e, 0x6b, 0x3f, 0x5d, 0xbe, 0x6d, 0x77, 0xda, 0xbe, 
  0xe0, 0xef, 0x16, 0x3e, 0x40, 0x3a, 0x1a, 0x3e, 0xcd, 0xb7, 0x1e, 0xbe, 
  0x78, 0xd3, 0xc9, 0xbe, 0xfb, 0x0b, 0x00, 0xbf, 0x5f, 0xaa, 0xf3, 0x3b, 
  0x83, 0x30, 0x3c, 0xbe, 0xc2, 0x33, 0xc4, 0x3d, 0x8f, 0x7d, 0xb6, 0x3e, 
  0x89, 0x4b, 0xfa, 0xbe, 0x8a, 0x56, 0x10, 0x3d, 0x92, 0x3d, 0xde, 0x3e, 
  0x0b, 0x6b, 0x30, 0x3e, 0xfd, 0xe8, 0xf2, 0x3e, 0x2e, 0x62, 0xbe, 0x3d, 
  0x96, 0x31, 0xb0, 0x3e, 0xab, 0xaf, 0x65, 0x39, 0x6c, 0x1a, 0x6e, 0xbe, 
  0xa8, 0xb2, 0x66, 0x3c, 0x0e, 0x69, 0x25, 0xbe, 0x00, 0x5f, 0x87, 0xbe, 
  0xf9, 0x84, 0xe3, 0xbe, 0xa5, 0xf7, 0x1e, 0xbe, 0x1f, 0x69, 0x96, 0xbd, 
  0xc4, 0x2a, 0x89, 0x3e, 0xaf, 0x99, 0x4a, 0xbd, 0x98, 0xaf, 0x77, 0x3e, 
  0xba, 0x81, 0xb2, 0xbe, 0xe3, 0x93, 0xa8, 0x3d, 0x8a, 0xa0, 0x43, 0x3e, 
  0xcc, 0x9e, 0x27, 0xbd, 0x2d, 0x92, 0x1f, 0x3e, 0x12, 0xe3, 0xd6, 0x3d, 
  0xdc, 0x2c, 0xec, 0xba, 0xd5, 0x54, 0x02, 0x3e, 0x6d, 0x48, 0xad, 0x3e, 
  0x43, 0x74, 0x37, 0x3d, 0x53, 0xf0, 0x64, 0xbc, 0xb8, 0xc0, 0x12, 0x3e, 
  0x76, 0x79, 0xca, 0xbd, 0x0f, 0xc4, 0xa1, 0x3e, 0x6a, 0x5d, 0xb3, 0x3e, 
  0x99, 0x4b, 0x66, 0xbe, 0x17, 0xa9, 0x30, 0xbe, 0x6d, 0x74, 0xfc, 0xbd, 
  0x7e, 0x96, 0x33, 0x3c, 0x4d, 0x5b, 0x37, 0xbe, 0x6a, 0xe2, 0xdb, 0xbd, 
  0xbc, 0x28, 0x88, 0xbe, 0x15, 0x27, 0xc1, 0xbe, 0x2c, 0x0e, 0x00, 0xbe, 
  0xdb, 0x4d, 0xaf, 0x3e, 0xb4, 0x42, 0xa4, 0x3e, 0x32, 0x18, 0x1a, 0xbe, 
  0xf5, 0x51, 0xd5, 0x3d, 0xa6, 0xea, 0x9c, 0x3e, 0x64, 0x13, 0x6d, 0x3e, 
  0x53, 0x09, 0x4a, 0xbe, 0x80, 0x34, 0x39, 0xbe, 0xf8, 0xab, 0xc8, 0xbe, 
  0xe2, 0xbd, 0x4e, 0x3d, 0x64, 0x05, 0x83, 0x3e, 0x33, 0x75, 0x16, 0xbd, 
  0x9b, 0xe7, 0xb4, 0xbc, 0xec, 0xdb, 0x35, 0x3e, 0xa7, 0x75, 0xfe, 0x3d, 
  0x50, 0x3d, 0x26, 0x3a, 0xdc, 0x22, 0x7b, 0xbe, 0x2e, 0x93, 0x82, 0xbc, 
  0xbc, 0xa3, 0x39, 0xbe, 0x6a, 0xfd, 0xff, 0xff, 0x04, 0x00, 0x00, 0x00, 
  0x40, 0x00, 0x00, 0x00, 0x11, 0xf0, 0xdc, 0x3f, 0xed, 0xa2, 0xdf, 0x3f, 
  0xf7, 0xd4, 0xe2, 0x3f, 0xf5, 0x37, 0xba, 0x3f, 0x99, 0xdb, 0xb2, 0x3f, 
  0xa6, 0x07, 0xdc, 0x3f, 0x7a, 0x6f, 0x01, 0x40, 0xb0, 0xc3, 0xe7, 0x3f, 
  0xb2, 0xe6, 0xdc, 0x3f, 0xdc, 0x67, 0xe2, 0x3f, 0x2f, 0xfc, 0xe1, 0x3f, 
  0x1d, 0xf5, 0x07, 0x40, 0x2f, 0xfc, 0xe4, 0x3f, 0x48, 0x3e, 0xd2, 0x3f, 
  0x2f, 0xe6, 0xee, 0x3f, 0x0b, 0xe4, 0xec, 0x3f, 0xb6, 0xfd, 0xff, 0xff, 
  0x04, 0x00, 0x00, 0x00, 0x20, 0x00, 0x00, 0x00, 0xa3, 0xe9, 0x35, 0xbe, 
  0xde, 0x4a, 0x5e, 0x40, 0xc1, 0x1b, 0x0b, 0xbe, 0xc0, 0x97, 0x59, 0xbe, 
  0xe9, 0xf7, 0x28, 0xbe, 0x33, 0xf2, 0x56, 0x40, 0xe4, 0x6e, 0x5a, 0x40, 
  0x88, 0xc6, 0x2a, 0xbe, 0xe2, 0xfd, 0xff, 0xff, 0x04, 0x00, 0x00, 0x00, 
  0x04, 0x00, 0x00, 0x00, 0xb0, 0x52, 0x2f, 0x40, 0xf2, 0xfd, 0xff, 0xff, 
  0x04, 0x00, 0x00, 0x00, 0x00, 0x02, 0x00, 0x00, 0xcb, 0x90, 0x5f, 0xbe, 
  0xeb, 0x95, 0x66, 0xbe, 0x1f, 0xbd, 0x60, 0xbc, 0xb4, 0x93, 0x08, 0xbe, 
  0xea, 0x67, 0x84, 0xbd, 0x6c, 0x52, 0x52, 0xbe, 0xa7, 0x52, 0x18, 0xbe, 
  0x83, 0xe1, 0x08, 0x3e, 0xbf, 0xc0, 0x88, 0xbe, 0x73, 0x45, 0x21, 0xbe, 
  0xbb, 0xf5, 0xb0, 0x3d, 0x44, 0x0d, 0xfe, 0xbd, 0x18, 0x02, 0x95, 0x3d, 
  0xfa, 0x19, 0x01, 0xbc, 0x09, 0x86, 0xa1, 0xbd, 0xd3, 0x0d, 0xfc, 0xbd, 
  0x32, 0xfe, 0xec, 0x3e, 0xda, 0x32, 0x31, 0x3e, 0x61, 0x4d, 0x07, 0x3f, 
  0xba, 0x00, 0x8d, 0x3f, 0x84, 0x24, 0x27, 0x3f, 0x8f, 0x88, 0x94, 0x3f, 
  0x33, 0xd8, 0xe5, 0x3e, 0x86, 0x2a, 0x0b, 0x3f, 0x89, 0x2a, 0x06, 0x3f, 
  0xbb, 0x69, 0x14, 0x3f, 0x24, 0x4e, 0x7e, 0x3f, 0xda, 0x6b, 0x02, 0x3f, 
  0xcb, 0x57, 0x63, 0x3f, 0x03, 0x02, 0xbd, 0x3d, 0xeb, 0x2c, 0x3c, 0x3f, 
  0x03, 0x5a, 0x05, 0x3f, 0xa8, 0xae, 0x90, 0xbe, 0xcf, 0x65, 0x57, 0xbe, 
  0x62, 0x56, 0x42, 0xbe, 0x28, 0xa9, 0x4f, 0x3e, 0x79, 0x1c, 0x56, 0x3b, 
  0xaa, 0x4b, 0x38, 0xbe, 0x75, 0xf7, 0x6a, 0xbe, 0xad, 0x1f, 0x36, 0xbe, 
  0x40, 0x72, 0x32, 0xbe, 0x36, 0x2d, 0x42, 0xbe, 0x99, 0xe1, 0x20, 0xbe, 
  0x3f, 0x66, 0x03, 0xbe, 0x3d, 0x25, 0xd2, 0xbd, 0xd8, 0xed, 0x04, 0xbe, 
  0x60, 0x72, 0xcf, 0xbd, 0x54, 0xda, 0x4b, 0x3e, 0x77, 0xeb, 0x2f, 0x3e, 
  0x13, 0xa7, 0x89, 0xbe, 0xd9, 0x16, 0x00, 0x3d, 0x61, 0x25, 0x64, 0xbe, 
  0x2a, 0x1c, 0x90, 0x3d, 0x15, 0x75, 0x1b, 0xbe, 0x6f, 0x89, 0x5a, 0xbe, 
  0xde, 0x2d, 0x98, 0xbe, 0xd6, 0x80, 0x56, 0xbe, 0xd9, 0x3a, 0x30, 0xbe, 
  0xc0, 0x1b, 0xef, 0xbc, 0x52, 0x3a, 0x82, 0xbe, 0xcf, 0x6b, 0xe9, 0x3d, 
  0x7e, 0x63, 0x4a, 0xbe, 0xbd, 0x27, 0x5b, 0xbe, 0x48, 0xd1, 0xa2, 0xbe, 
  0xdb, 0x94, 0x64, 0xbe, 0x88, 0x86, 0xdb, 0xbd, 0xbe, 0xf8, 0x51, 0xbe, 
  0x97, 0xca, 0x06, 0xbd, 0x01, 0x15, 0x54, 0x3d, 0x3d, 0x46, 0x27, 0xbd, 
  0x65, 0xff, 0xb2, 0xbd, 0x05, 0x88, 0x34, 0xbe, 0xeb, 0x74, 0x92, 0x3c, 
  0x6d, 0x06, 0x46, 0xbb, 0xdf, 0x09, 0x10, 0xbd, 0x07, 0x3d, 0xe9, 0xbd, 
  0xcc, 0xc3, 0x54, 0xbd, 0x86, 0x38, 0x96, 0xbd, 0xfb, 0x6f, 0x34, 0xbe, 
  0x61, 0x54, 0xf4, 0x3d, 0x8d, 0x10, 0xe7, 0x3e, 0xa6, 0x6c, 0xe3, 0x3e, 
  0xf6, 0x95, 0x47, 0x3f, 0xe5, 0xa5, 0x05, 0x3f, 0x40, 0x05, 0x16, 0x3f, 
  0x1e, 0x39, 0x65, 0x3f, 0x16, 0x9b, 0x27, 0x3f, 0xca, 0xd5, 0xa3, 0x3e, 
  0xa9, 0x06, 0x2c, 0x3f, 0x53, 0x83, 0x8f, 0x3f, 0x41, 0x97, 0x62, 0x3f, 
  0xe3, 0x70, 0xdc, 0x3e, 0x03, 0xc6, 0x70, 0x3f, 0xe0, 0x69, 0x59, 0x3f, 
  0x4c, 0x02, 0x32, 0x3f, 0xc2, 0xc0, 0x1f, 0x3f, 0x94, 0xb0, 0x59, 0x3f, 
  0xd6, 0x5c, 0x1d, 0x3f, 0x8f, 0xf7, 0x0f, 0x3f, 0x03, 0x94, 0x32, 0x3e, 
  0x67, 0x6e, 0x16, 0x3f, 0x51, 0x9b, 0xda, 0x3d, 0x74, 0x25, 0xe2, 0x3e, 
  0xdc, 0xe3, 0xe0, 0x3e, 0x58, 0x00, 0x2d, 0x3f, 0xfa, 0x66, 0x38, 0x3e, 
  0x08, 0x96, 0x39, 0x3e, 0x70, 0xeb, 0x1f, 0x3f, 0x45, 0xa9, 0x0e, 0x3e, 
  0x2c, 0x4f, 0xb3, 0x3e, 0x09, 0xfe, 0x9d, 0x3e, 0x26, 0x28, 0x09, 0x3f, 
  0xf2, 0x8b, 0x36, 0xbe, 0xcb, 0xc0, 0xd4, 0xbc, 0xe7, 0x11, 0x46, 0xbe, 
  0x61, 0x3a, 0x15, 0x3d, 0xb0, 0x37, 0x0b, 0x3e, 0xe5, 0x5d, 0x5f, 0xbd, 
  0x82, 0x8a, 0x00, 0xbe, 0xb5, 0xd6, 0x0f, 0xbe, 0x02, 0xf3, 0x11, 0xbb, 
  0x9c, 0xda, 0x86, 0x3d, 0x15, 0x61, 0x80, 0xbe, 0x1e, 0x62, 0x1f, 0xbe, 
  0x7d, 0xff, 0x63, 0xbe, 0xa5, 0x87, 0x5f, 0xbe, 0xed, 0xb2, 0xa7, 0xbd, 
  0x38, 0xd2, 0x33, 0xbe, 0x00, 0x00, 0x06, 0x00, 0x08, 0x00, 0x04, 0x00, 
  0x06, 0x00, 0x00, 0x00, 0x04, 0x00, 0x00, 0x00, 0x20, 0x00, 0x00, 0x00, 
  0x9e, 0x1a, 0x95, 0xbd, 0x88, 0x85, 0x80, 0x3f, 0xd8, 0x33, 0x20, 0xbf, 
  0x56, 0xa4, 0x51, 0xbe, 0x70, 0x07, 0x87, 0xbe, 0xf2, 0x83, 0x7a, 0x3f, 
  0x8d, 0x99, 0xb6, 0x3f, 0x4f, 0xf4, 0xa5, 0xbe, 0x28, 0xfb, 0xff, 0xff, 
  0x2c, 0xfb, 0xff, 0xff, 0x0f, 0x00, 0x00, 0x00, 0x4d, 0x4c, 0x49, 0x52, 
  0x20, 0x43, 0x6f, 0x6e, 0x76, 0x65, 0x72, 0x74, 0x65, 0x64, 0x2e, 0x00, 
  0x01, 0x00, 0x00, 0x00, 0x14, 0x00, 0x00, 0x00, 0x00, 0x00, 0x0e, 0x00, 
  0x18, 0x00, 0x14, 0x00, 0x10, 0x00, 0x0c, 0x00, 0x08, 0x00, 0x04, 0x00, 
  0x0e, 0x00, 0x00, 0x00, 0x14, 0x00, 0x00, 0x00, 0x1c, 0x00, 0x00, 0x00, 
  0xe8, 0x00, 0x00, 0x00, 0xec, 0x00, 0x00, 0x00, 0xf0, 0x00, 0x00, 0x00, 
  0x04, 0x00, 0x00, 0x00, 0x6d, 0x61, 0x69, 0x6e, 0x00, 0x00, 0x00, 0x00, 
  0x03, 0x00, 0x00, 0x00, 0x90, 0x00, 0x00, 0x00, 0x48, 0x00, 0x00, 0x00, 
  0x04, 0x00, 0x00, 0x00, 0xce, 0xff, 0xff, 0xff, 0x10, 0x00, 0x00, 0x00, 
  0x00, 0x00, 0x00, 0x08, 0x0c, 0x00, 0x00, 0x00, 0x10, 0x00, 0x00, 0x00, 
  0xa4, 0xfb, 0xff, 0xff, 0x01, 0x00, 0x00, 0x00, 0x09, 0x00, 0x00, 0x00, 
  0x03, 0x00, 0x00, 0x00, 0x08, 0x00, 0x00, 0x00, 0x01, 0x00, 0x00, 0x00, 
  0x03, 0x00, 0x00, 0x00, 0x00, 0x00, 0x0e, 0x00, 0x14, 0x00, 0x00, 0x00, 
  0x10, 0x00, 0x0c, 0x00, 0x0b, 0x00, 0x04, 0x00, 0x0e, 0x00, 0x00, 0x00, 
  0x10, 0x00, 0x00, 0x00, 0x00, 0x00, 0x00, 0x08, 0x10, 0x00, 0x00, 0x00, 
  0x14, 0x00, 0x00, 0x00, 0xba, 0xff, 0xff, 0xff, 0x00, 0x00, 0x00, 0x01, 
  0x01, 0x00, 0x00, 0x00, 0x08, 0x00, 0x00, 0x00, 0x03, 0x00, 0x00, 0x00, 
  0x07, 0x00, 0x00, 0x00, 0x02, 0x00, 0x00, 0x00, 0x04, 0x00, 0x00, 0x00, 
  0x00, 0x00, 0x0e, 0x00, 0x16, 0x00, 0x00, 0x00, 0x10, 0x00, 0x0c, 0x00, 
  0x0b, 0x00, 0x04, 0x00, 0x0e, 0x00, 0x00, 0x00, 0x18, 0x00, 0x00, 0x00, 
  0x00, 0x00, 0x00, 0x08, 0x18, 0x00, 0x00, 0x00, 0x1c, 0x00, 0x00, 0x00, 
  0x00, 0x00, 0x06, 0x00, 0x08, 0x00, 0x07, 0x00, 0x06, 0x00, 0x00, 0x00, 
  0x00, 0x00, 0x00, 0x01, 0x01, 0x00, 0x00, 0x00, 0x07, 0x00, 0x00, 0x00, 
  0x03, 0x00, 0x00, 0x00, 0x00, 0x00, 0x00, 0x00, 0x06, 0x00, 0x00, 0x00, 
  0x05, 0x00, 0x00, 0x00, 0x01, 0x00, 0x00, 0x00, 0x09, 0x00, 0x00, 0x00, 
  0x01, 0x00, 0x00, 0x00, 0x00, 0x00, 0x00, 0x00, 0x0a, 0x00, 0x00, 0x00, 
  0x74, 0x03, 0x00, 0x00, 0x1c, 0x03, 0x00, 0x00, 0xc4, 0x02, 0x00, 0x00, 
  0x88, 0x02, 0x00, 0x00, 0x4c, 0x02, 0x00, 0x00, 0xf0, 0x01, 0x00, 0x00, 
  0xa0, 0x01, 0x00, 0x00, 0x00, 0x01, 0x00, 0x00, 0x60, 0x00, 0x00, 0x00, 
  0x04, 0x00, 0x00, 0x00, 0xca, 0xfc, 0xff, 0xff, 0x00, 0x00, 0x00, 0x01, 
  0x14, 0x00, 0x00, 0x00, 0x1c, 0x00, 0x00, 0x00, 0x1c, 0x00, 0x00, 0x00, 
  0x0a, 0x00, 0x00, 0x00, 0x34, 0x00, 0x00, 0x00, 0x02, 0x00, 0x00, 0x00, 
  0xff, 0xff, 0xff, 0xff, 0x01, 0x00, 0x00, 0x00, 0xb4, 0xfc, 0xff, 0xff, 
  0x1b, 0x00, 0x00, 0x00, 0x53, 0x74, 0x61, 0x74, 0x65, 0x66, 0x75, 0x6c, 
  0x50, 0x61, 0x72, 0x74, 0x69, 0x74, 0x69, 0x6f, 0x6e, 0x65, 0x64, 0x43, 
  0x61, 0x6c, 0x6c, 0x5f, 0x31, 0x3a, 0x30, 0x00, 0x02, 0x00, 0x00, 0x00, 
  0x01, 0x00, 0x00, 0x00, 0x01, 0x00, 0x00, 0x00, 0x22, 0xfd, 0xff, 0xff, 
  0x00, 0x00, 0x00, 0x01, 0x14, 0x00, 0x00, 0x00, 0x1c, 0x00, 0x00, 0x00, 
  0x1c, 0x00, 0x00, 0x00, 0x09, 0x00, 0x00, 0x00, 0x78, 0x00, 0x00, 0x00, 
  0x02, 0x00, 0x00, 0x00, 0xff, 0xff, 0xff, 0xff, 0x08, 0x00, 0x00, 0x00, 
  0x0c, 0xfd, 0xff, 0xff, 0x5e, 0x00, 0x00, 0x00, 0x73, 0x65, 0x71, 0x75, 
  0x65, 0x6e, 0x74, 0x69, 0x61, 0x6c, 0x5f, 0x32, 0x5f, 0x31, 0x2f, 0x64, 
  0x65, 0x6e, 0x73, 0x65, 0x5f, 0x37, 0x5f, 0x31, 0x2f, 0x4d, 0x61, 0x74, 
  0x4d, 0x75, 0x6c, 0x3b, 0x73, 0x65, 0x71, 0x75, 0x65, 0x6e, 0x74, 0x69, 
  0x61, 0x6c, 0x5f, 0x32, 0x5f, 0x31, 0x2f, 0x64, 0x65, 0x6e, 0x73, 0x65, 
  0x5f, 0x37, 0x5f, 0x31, 0x2f, 0x52, 0x65, 0x6c, 0x75, 0x3b, 0x73, 0x65, 
  0x71, 0x75, 0x65, 0x6e, 0x74, 0x69, 0x61, 0x6c, 0x5f, 0x32, 0x5f, 0x31, 
  0x2f, 0x64, 0x65, 0x6e, 0x73, 0x65, 0x5f, 0x37, 0x5f, 0x31, 0x2f, 0x42, 
  0x69, 0x61, 0x73, 0x41, 0x64, 0x64, 0x00, 0x00, 0x02, 0x00, 0x00, 0x00, 
  0x01, 0x00, 0x00, 0x00, 0x08, 0x00, 0x00, 0x00, 0xbe, 0xfd, 0xff, 0xff, 
  0x00, 0x00, 0x00, 0x01, 0x14, 0x00, 0x00, 0x00, 0x1c, 0x00, 0x00, 0x00, 
  0x1c, 0x00, 0x00, 0x00, 0x08, 0x00, 0x00, 0x00, 0x78, 0x00, 0x00, 0x00, 
  0x02, 0x00, 0x00, 0x00, 0xff, 0xff, 0xff, 0xff, 0x10, 0x00, 0x00, 0x00, 
  0xa8, 0xfd, 0xff, 0xff, 0x5e, 0x00, 0x00, 0x00, 0x73, 0x65, 0x71, 0x75, 
  0x65, 0x6e, 0x74, 0x69, 0x61, 0x6c, 0x5f, 0x32, 0x5f, 0x31, 0x2f, 0x64, 
  0x65, 0x6e, 0x73, 0x65, 0x5f, 0x36, 0x5f, 0x31, 0x2f, 0x4d, 0x61, 0x74, 
  0x4d, 0x75, 0x6c, 0x3b, 0x73, 0x65, 0x71, 0x75, 0x65, 0x6e, 0x74, 0x69, 
  0x61, 0x6c, 0x5f, 0x32, 0x5f, 0x31, 0x2f, 0x64, 0x65, 0x6e, 0x73, 0x65, 
  0x5f, 0x36, 0x5f, 0x31, 0x2f, 0x52, 0x65, 0x6c, 0x75, 0x3b, 0x73, 0x65, 
  0x71, 0x75, 0x65, 0x6e, 0x74, 0x69, 0x61, 0x6c, 0x5f, 0x32, 0x5f, 0x31, 
  0x2f, 0x64, 0x65, 0x6e, 0x73, 0x65, 0x5f, 0x36, 0x5f, 0x31, 0x2f, 0x42, 
  0x69, 0x61, 0x73, 0x41, 0x64, 0x64, 0x00, 0x00, 0x02, 0x00, 0x00, 0x00, 
  0x01, 0x00, 0x00, 0x00, 0x10, 0x00, 0x00, 0x00, 0xae, 0xfe, 0xff, 0xff, 
  0x00, 0x00, 0x00, 0x01, 0x10, 0x00, 0x00, 0x00, 0x10, 0x00, 0x00, 0x00, 
  0x07, 0x00, 0x00, 0x00, 0x2c, 0x00, 0x00, 0x00, 0x34, 0xfe, 0xff, 0xff, 
  0x1f, 0x00, 0x00, 0x00, 0x73, 0x65, 0x71, 0x75, 0x65, 0x6e, 0x74, 0x69, 
  0x61, 0x6c, 0x5f, 0x32, 0x5f, 0x31, 0x2f, 0x64, 0x65, 0x6e, 0x73, 0x65, 
  0x5f, 0x36, 0x5f, 0x31, 0x2f, 0x4d, 0x61, 0x74, 0x4d, 0x75, 0x6c, 0x00, 
  0x02, 0x00, 0x00, 0x00, 0x10, 0x00, 0x00, 0x00, 0x1e, 0x00, 0x00, 0x00, 
  0xfa, 0xfe, 0xff, 0xff, 0x00, 0x00, 0x00, 0x01, 0x10, 0x00, 0x00, 0x00, 
  0x10, 0x00, 0x00, 0x00, 0x06, 0x00, 0x00, 0x00, 0x3c, 0x00, 0x00, 0x00, 
  0x80, 0xfe, 0xff, 0xff, 0x2f, 0x00, 0x00, 0x00, 0x73, 0x65, 0x71, 0x75, 
  0x65, 0x6e, 0x74, 0x69, 0x61, 0x6c, 0x5f, 0x32, 0x5f, 0x31, 0x2f, 0x64, 
  0x65, 0x6e, 0x73, 0x65, 0x5f, 0x36, 0x5f, 0x31, 0x2f, 0x42, 0x69, 0x61, 
  0x73, 0x41, 0x64, 0x64, 0x2f, 0x52, 0x65, 0x61, 0x64, 0x56, 0x61, 0x72, 
  0x69, 0x61, 0x62, 0x6c, 0x65, 0x4f, 0x70, 0x00, 0x01, 0x00, 0x00, 0x00, 
  0x10, 0x00, 0x00, 0x00, 0x52, 0xff, 0xff, 0xff, 0x00, 0x00, 0x00, 0x01, 
  0x10, 0x00, 0x00, 0x00, 0x10, 0x00, 0x00, 0x00, 0x05, 0x00, 0x00, 0x00, 
  0x1c, 0x00, 0x00, 0x00, 0xd8, 0xfe, 0xff, 0xff, 0x0f, 0x00, 0x00, 0x00, 
  0x61, 0x72, 0x69, 0x74, 0x68, 0x2e, 0x63, 0x6f, 0x6e, 0x73, 0x74, 0x61, 
  0x6e, 0x74, 0x33, 0x00, 0x01, 0x00, 0x00, 0x00, 0x08, 0x00, 0x00, 0x00, 
  0x8a, 0xff, 0xff, 0xff, 0x00, 0x00, 0x00, 0x01, 0x10, 0x00, 0x00, 0x00, 
  0x10, 0x00, 0x00, 0x00, 0x04, 0x00, 0x00, 0x00, 0x1c, 0x00, 0x00, 0x00, 
  0x10, 0xff, 0xff, 0xff, 0x0f, 0x00, 0x00, 0x00, 0x61, 0x72, 0x69, 0x74, 
  0x68, 0x2e, 0x63, 0x6f, 0x6e, 0x73, 0x74, 0x61, 0x6e, 0x74, 0x32, 0x00, 
  0x01, 0x00, 0x00, 0x00, 0x01, 0x00, 0x00, 0x00, 0xc2, 0xff, 0xff, 0xff, 
  0x00, 0x00, 0x00, 0x01, 0x10, 0x00, 0x00, 0x00, 0x10, 0x00, 0x00, 0x00, 
  0x03, 0x00, 0x00, 0x00, 0x1c, 0x00, 0x00, 0x00, 0x48, 0xff, 0xff, 0xff, 
  0x0f, 0x00, 0x00, 0x00, 0x61, 0x72, 0x69, 0x74, 0x68, 0x2e, 0x63, 0x6f, 
  0x6e, 0x73, 0x74, 0x61, 0x6e, 0x74, 0x31, 0x00, 0x02, 0x00, 0x00, 0x00, 
  0x08, 0x00, 0x00, 0x00, 0x10, 0x00, 0x00, 0x00, 0x00, 0x00, 0x16, 0x00, 
  0x18, 0x00, 0x14, 0x00, 0x00, 0x00, 0x10, 0x00, 0x0c, 0x00, 0x08, 0x00, 
  0x00, 0x00, 0x00, 0x00, 0x00, 0x00, 0x07, 0x00, 0x16, 0x00, 0x00, 0x00, 
  0x00, 0x00, 0x00, 0x01, 0x10, 0x00, 0x00, 0x00, 0x10, 0x00, 0x00, 0x00, 
  0x02, 0x00, 0x00, 0x00, 0x1c, 0x00, 0x00, 0x00, 0x9c, 0xff, 0xff, 0xff, 
  0x0e, 0x00, 0x00, 0x00, 0x61, 0x72, 0x69, 0x74, 0x68, 0x2e, 0x63, 0x6f, 
  0x6e, 0x73, 0x74, 0x61, 0x6e, 0x74, 0x00, 0x00, 0x02, 0x00, 0x00, 0x00, 
  0x01, 0x00, 0x00, 0x00, 0x08, 0x00, 0x00, 0x00, 0x00, 0x00, 0x16, 0x00, 
  0x1c, 0x00, 0x18, 0x00, 0x00, 0x00, 0x14, 0x00, 0x10, 0x00, 0x0c, 0x00, 
  0x00, 0x00, 0x00, 0x00, 0x08, 0x00, 0x07, 0x00, 0x16, 0x00, 0x00, 0x00, 
  0x00, 0x00, 0x00, 0x01, 0x14, 0x00, 0x00, 0x00, 0x20, 0x00, 0x00, 0x00, 
  0x20, 0x00, 0x00, 0x00, 0x01, 0x00, 0x00, 0x00, 0x40, 0x00, 0x00, 0x00, 
  0x02, 0x00, 0x00, 0x00, 0xff, 0xff, 0xff, 0xff, 0x1e, 0x00, 0x00, 0x00, 
  0x04, 0x00, 0x04, 0x00, 0x04, 0x00, 0x00, 0x00, 0x21, 0x00, 0x00, 0x00, 
  0x73, 0x65, 0x72, 0x76, 0x69, 0x6e, 0x67, 0x5f, 0x64, 0x65, 0x66, 0x61, 
  0x75, 0x6c, 0x74, 0x5f, 0x6b, 0x65, 0x72, 0x61, 0x73, 0x5f, 0x74, 0x65, 
  0x6e, 0x73, 0x6f, 0x72, 0x5f, 0x31, 0x30, 0x3a, 0x30, 0x00, 0x00, 0x00, 
  0x02, 0x00, 0x00, 0x00, 0x01, 0x00, 0x00, 0x00, 0x1e, 0x00, 0x00, 0x00, 
  0x01, 0x00, 0x00, 0x00, 0x10, 0x00, 0x00, 0x00, 0x0c, 0x00, 0x0c, 0x00, 
  0x0b, 0x00, 0x00, 0x00, 0x00, 0x00, 0x04, 0x00, 0x0c, 0x00, 0x00, 0x00, 
  0x09, 0x00, 0x00, 0x00, 0x00, 0x00, 0x00, 0x09, 
};

const unsigned int g_aqi_model_data_len = 4460;

#endif // AQI_MODEL_DATA_H
